7fff000000000000
7ff6fcdb00000000
7fd8f9b800000000
7fa7f69500000000
7f62f37400000000
7f09f05400000000
7e9ded3700000000
7e1dea1d00000000
7d8ae70700000000
7ce3e3f400000000
7c29e0e600000000
7b5ddddc00000000
7a7ddad700000000
798ad7d900000000
7884d4e000000000
776cd1ee00000000
7641cf0400000000
7504cc2100000000
73b5c94500000000
7255c67300000000
70e2c3a900000000
6f5fc0e800000000
6dcabe3100000000
6c24bb8500000000
6a6db8e300000000
68a6b64b00000000
66cfb3c000000000
64e8b14000000000
62f2aecc00000000
60ecac6400000000
5ed7aa0a00000000
5cb4a7bd00000000
5a82a57d00000000
5842a34b00000000
55f5a12800000000
539b9f1300000000
51339d0d00000000
4ebf9b1700000000
4c3f993000000000
49b4975900000000
471c959200000000
447a93db00000000
41ce923500000000
3f1790a000000000
3c568f1d00000000
398c8daa00000000
36ba8c4a00000000
33de8afb00000000
30fb89be00000000
2e11889300000000
2b1f877b00000000
2826867500000000
2528858200000000
222384a200000000
1f1983d600000000
1c0b831c00000000
18f8827500000000
15e281e200000000
12c8816200000000
0fab80f600000000
0c8b809d00000000
096a805800000000
0647802700000000
0324800900000000
0000800000000000
fcdb800900000000
f9b8802700000000
f695805800000000
f374809d00000000
f05480f600000000
ed37816200000000
ea1d81e200000000
e707827500000000
e3f4831c00000000
e0e683d600000000
dddc84a200000000
dad7858200000000
d7d9867500000000
d4e0877b00000000
d1ee889300000000
cf0489be00000000
cc218afb00000000
c9458c4a00000000
c6738daa00000000
c3a98f1d00000000
c0e890a000000000
be31923500000000
bb8593db00000000
b8e3959200000000
b64b975900000000
b3c0993000000000
b1409b1700000000
aecc9d0d00000000
ac649f1300000000
aa0aa12800000000
a7bda34b00000000
a57da57d00000000
a34ba7bd00000000
a128aa0a00000000
9f13ac6400000000
9d0daecc00000000
9b17b14000000000
9930b3c000000000
9759b64b00000000
9592b8e300000000
93dbbb8500000000
9235be3100000000
90a0c0e800000000
8f1dc3a900000000
8daac67300000000
8c4ac94500000000
8afbcc2100000000
89becf0400000000
8893d1ee00000000
877bd4e000000000
8675d7d900000000
8582dad700000000
84a2dddc00000000
83d6e0e600000000
831ce3f400000000
8275e70700000000
81e2ea1d00000000
8162ed3700000000
80f6f05400000000
809df37400000000
8058f69500000000
8027f9b800000000
8009fcdb00000000
0000000000000000
0000000000000000
0000000000000000
0000000000000000
0000000000000000
0000000000000000
0000000000000000
0000000000000000
0000000000000000
0000000000000000
0000000000000000
0000000000000000
0000000000000000
0000000000000000
0000000000000000
0000000000000000
0000000000000000
0000000000000000
0000000000000000
0000000000000000
0000000000000000
0000000000000000
0000000000000000
0000000000000000
0000000000000000
0000000000000000
0000000000000000
0000000000000000
0000000000000000
0000000000000000
0000000000000000
0000000000000000
0000000000000000
0000000000000000
0000000000000000
0000000000000000
0000000000000000
0000000000000000
0000000000000000
0000000000000000
0000000000000000
0000000000000000
0000000000000000
0000000000000000
0000000000000000
0000000000000000
0000000000000000
0000000000000000
0000000000000000
0000000000000000
0000000000000000
0000000000000000
0000000000000000
0000000000000000
0000000000000000
0000000000000000
0000000000000000
0000000000000000
0000000000000000
0000000000000000
0000000000000000
0000000000000000
0000000000000000
0000000000000000
0000000000000000
0000000000000000
0000000000000000
0000000000000000
0000000000000000
0000000000000000
0000000000000000
0000000000000000
0000000000000000
0000000000000000
0000000000000000
0000000000000000
0000000000000000
0000000000000000
0000000000000000
0000000000000000
0000000000000000
0000000000000000
0000000000000000
0000000000000000
0000000000000000
0000000000000000
0000000000000000
0000000000000000
0000000000000000
0000000000000000
0000000000000000
0000000000000000
0000000000000000
0000000000000000
0000000000000000
0000000000000000
0000000000000000
0000000000000000
0000000000000000
0000000000000000
0000000000000000
0000000000000000
0000000000000000
0000000000000000
0000000000000000
0000000000000000
0000000000000000
0000000000000000
0000000000000000
0000000000000000
0000000000000000
0000000000000000
0000000000000000
0000000000000000
0000000000000000
0000000000000000
0000000000000000
0000000000000000
0000000000000000
0000000000000000
0000000000000000
0000000000000000
0000000000000000
0000000000000000
0000000000000000
0000000000000000
0000000000000000
0000000000000000
